111000001
111010100
101000100
1000101
1001011
101110100
100100
110111011
111010011
111001111
111010001
1111
101111101
11010010
111100011
111111101
111000001
1011011
11011
10001001
1101110
1010
1100110
111011100
111001011
1000101
110101011
101100110
11101
110110111
