101101010
111000101
110000001
111010010
10100
110100110
11
111011000
1010
110100
111010010
111000
110011110
10110001
10
10111
111001110
111011111
111001111
1111010
1100101
111001001
1110011
1010100
111001101
111000
111110101
110100000
1011000
111010010
