101110001
110110101
110101110
1001
101
111101111
111100000
110000000
100000
111111011
111010111
101100
110000101
10111100
110110
1101
111000010
101010
111101101
10010110
10001011
111011110
1110110
111111100
111010110
110111
111100001
101110010
111010
111101111
