110100001
110100110
110000001
111110111
111111100
110110010
111111100
110010001
111110011
000111111
111100000
000110011
110110110
011001111
000011100
000000010
110111110
001101001
111100101
001100110
010000101
111101000
010010001
111110111
110011110
000110000
000001001
110010101
111110110
111010000
