111010001
101111010
110110010
111110000
000100000
110100010
111111111
111001111
111111101
111101111
000000101
000010001
111000101
010011100
000101111
111011110
111011000
001000001
000000101
001101100
001110100
111001100
001010000
000110001
111011111
001011111
000011010
110010101
000110001
111111010
