110100111
110101001
110100100
000001100
000111000
110100011
111100101
110010001
000001001
000010111
111111001
000011000
110110001
010101111
111111011
000011100
111011101
000110110
000101001
010001100
001111000
111010101
001111100
000001010
111011100
000111010
111110010
110000010
000011111
111011111
