101001100
111111001
001011010
000000001
110001011
110101101
101111101
110100111
111100101
110010101
000110101
111111000
111000001
000010101
000101111
000101010
011100011
000101111
000000000
001001110
001010000
111001111
010000000
111111001
000000111
111010101
111011010
111110110
000110110
110100000
