110000001
000000010
001010001
000011011
101100001
110110111
110011111
110001011
110111111
000000101
001000100
000100100
111101001
111010111
010011100
000010000
011110101
000101000
000111101
000100101
010000000
110110011
001101100
111100000
001010010
111101110
100110010
111101001
001000101
111011001
